1111111110011010
1111111111001010
1111111110101011
0000000001011111
0000000000000100
1111111110001000
0000000000001011
1111111100011101
1111111111110010
0000000001011010
0000000000011100
0000000000011110
1111111111010011
1111111111100101
0000000000001101
1111111111011110
1111111110101000
1111111111000011
1111111110010001
1111111111111101
0000000000111101
1111111111110110
0000000000011010
1111111111100000
1111111111010000
1111111011110000
0000000001001000
1111111111001101
1111111111001001
0000000000010111
0000000000100110
1111111111100011
0000000001111011
1111111111010011
0000000000111001
1111111111110010
1111111110110000
0000000000100000
1111111111100001
1111111111011100
0000000001010110
1111111101111011
0000000000001111
1111111110010110
1111111111100000
0000000000110101
0000000000001101
1111111111001011
1111111111101101
1111111111110010
0000000000111010
1111111110111111
1111111110101010
0000000000010101
1111111101100111
1111111111011010
1111111111111110
1111111111010101
1111111110110001
1111111111000111
1111111111100101
1111111111011110
0000000001010100
0000000000001100
1111111111110010
1111111111110111
1111111101111011
0000000001001111
1111111111011101
0000000000010011
1111111101011011
1111111111101101
0000000000010000
1111111111100001
1111111111010100
1111111111001111
1111111111101001
1111111111010111
1111111110000011
1111111101111100
1111111111101001
1111111111101011
0000000000101011
1111111111100100
1111111111000110
0000000000011001
1111111111100100
1111111101110111
0000000000001111
1111111111001010
1111111101111111
1111111111111101
0000000000001001
1111111111100001
0000000000101100
1111111111011111
1111111111011011
1111111110111011
0000000000010111
1111111111100000
0000000001000100
1111111111111010
1111111111101000
1111111110010100
0000000000000111
0000000000000101
0000000000000001
1111111110101010
0000000001101001
1111111111100000
0000000000010001
1111111111100100
0000000001011011
1111111110010010
0000000000111100
1111111110110010
0000000000110100
1111111111011001
1111111111101101
1111111111011001
1111111110100000
1111111111001110
1111111111011001
0000000001101110
1111111101010011
0000000000000011
1111111111110100
0000000000110001
0000000000111011
0000000000000000
1111111111111010
1111111111101001
1111111110101100
1111111111010110
0000000000011010
0000000001110100
0000000000010101
1111111111011100
0000000000010001
0000000000000100
1111111110001101
0000000000000000
1111111111011101
1111111111000101
0000000001001010
0000000010011011
0000000000100100
1111111110110010
0000000000001110
0000000000111011
1111111111011011
0000000000100000
1111111110001010
1111111101111111
0000000000011011
0000000001010001
0000000001111000
1111111110010011
0000000000111001
0000000000011001
1111111111010011
1111111110010111
1111111111001001
0000000010011101
1111111111101011
0000000000100101
1111111111111110
0000000001000010
1111111111000011
0000000001000110
0000000001001100
0000000000001000
0000000000001001
1111111111101010
1111111111101010
0000000000010011
1111111111110000
1111111110010111
0000000000001110
1111111111001011
1111111111010100
1111111101110011
1111111110101001
1111111111110111
1111111111001110
1111111111110001
1111111111101101
1111111110100111
1111111111001111
1111111110010010
1111111110111100
1111111111011111
0000000000011110
0000000000011011
0000000000010110
0000000000101101
1111111110110111
1111111111110100
1111111111100010
0000000000010110
0000000000100111
0000000000101010
1111111111001111
1111111111010111
0000000000101011
1111111100101100
1111111110111001
1111111101101010
0000000001000110
1111111111111010
1111111111010100
1111111101101011
0000000000001100
1111111111101000
0000000000000110
0000000000110010
0000000001100001
0000000000110010
0000000000111000
0000000010001101
1111111110110111
0000000000000101
1111111111010101
0000000000010000
1111111101111100
0000000000010001
1111111111011000
0000000001101010
1111111101110110
0000000000001101
0000000000011101
0000000001100110
1111111111001100
1111111110111000
1111111111001110
0000000000100001
1111111110101100
0000000000111010
1111111101111011
0000000001001011
0000000001101100
1111111111010011
0000000001001010
1111111110101011
0000000000110010
1111111101101000
1111111111111111
1111111111111110
0000000001001101
1111111110011111
1111111100111100
0000000010011000
0000000000100011
0000000001100100
1111111101111110
1111111111111101
