0000000110010110
0000000110101010
0000000110011101
0000000101111110
0000000110110110
0000000110110110
0000000110010110
0000001000010101
0000000110110010
0000000110101001
0000000110011100
0000000110000100
0000000110001001
0000000111000101
0000000110110100
0000000110100001
0000000111010010
0000000101101101
0000000111101010
0000000110000110
0000000110011001
0000000110100111
0000000110001110
0000000110101100
0000000110110010
0000000110011100
0000000110101111
0000000110100101
0000000111001001
0000000101101110
0000000110111010
0000000110101101
0000000110010111
0000000110000100
0000000111110001
0000000111000010
0000000101101110
0000000101111110
0000000110100100
0000000110001000
0000000110100010
0000000110111100
0000000110110001
0000000110000110
0000000111101001
0000000110100010
0000000110011010
0000000110011101
0000000111000011
0000000110110111
0000000110010100
0000000110000011
0000000110000011
0000000101110111
0000000101110111
0000000110111001
0000000110101111
0000000110011010
0000000111100101
0000000110100111
0000000110100110
0000000100111000
0000000111010010
0000000101110001
0000000111001110
0000000110011101
0000000111010101
0000000111001011
0000000111010100
0000000111011011
0000000110010101
0000000110110010
0000000110110111
0000000110111000
0000000110011000
0000000111110001
0000000110111111
0000000111000000
0000000110110000
0000000101111111
0000000110101100
0000000111000011
0000000110001111
0000000111001100
0000000101101000
0000000111010100
0000000111001111
0000000110100101
0000000110101100
0000000110011001
0000000110101100
0000000110000100
0000000110010001
0000000111011010
0000000110010010
0000000110100111
0000000111101011
0000000101111000
0000000110010111
0000000101110001
0000000110111100
0000000110011100
0000000110010000
0000000111111010
0000000110100100
0000000101111100
0000000110101110
0000000111000111
0000000110000111
0000000110010101
0000000111101010
0000000110111011
0000000110010010
0000000111001110
0000000110100101
0000000111100111
0000000110100010
0000000110100110
0000000110100000
0000000110101001
0000000111000110
0000000111010100
0000000101110000
0000000110110101
0000000111010001
0000000110101101
0000000111001110
0000000110100111
