0000000011000101
0000000010011110
0000000010110010
0000000010110011
0000000011000010
0000000010001100
0000000010111001
0000000010100011
0000000010101101
0000000010011111
0000000011001101
0000000011000110
0000000010010011
0000000011001101
0000000010110001
0000000010111010
0000000011000101
0000000011011010
0000000010111011
0000000010101100
0000000010011110
0000000010101010
0000000010101010
0000000010111010
0000000011010111
0000000010111110
0000000010110100
0000000010111011
0000000010101000
0000000010101011
0000000010101101
0000000010100111
0000000010110001
0000000011000001
0000000010010000
0000000010110001
0000000010011001
0000000011000000
0000000010101001
0000000010100001
0000000010111101
0000000010011101
0000000011000101
0000000010011011
0000000010101111
0000000011001010
0000000011011011
0000000010011001
0000000010000101
0000000010101110
0000000010110110
0000000011011011
0000000010101010
0000000011000110
0000000010111000
0000000011011100
0000000011001100
0000000011000001
0000000010011100
0000000010111001
0000000010111000
0000000010111011
0000000011000000
0000000011010110
0000000010111001
0000000010011001
0000000010110010
0000000010100110
0000000010110000
0000000010111011
0000000011001110
0000000011000110
0000000010101110
0000000010011100
0000000010111000
0000000010110000
0000000010101010
0000000011000111
0000000011010100
0000000010101101
0000000011000000
0000000011000011
0000000010110001
0000000010100111
0000000010110111
0000000010001010
0000000011010001
0000000010101101
0000000010111100
0000000011000001
0000000010111000
0000000011001011
0000000010010001
0000000011001111
0000000010100111
0000000010100010
0000000010110011
0000000010110001
0000000010111000
0000000011011111
0000000010101010
0000000011001110
0000000010110010
0000000010101011
0000000010110001
0000000010011111
0000000010011011
0000000010110001
0000000011001011
0000000011000011
0000000010011100
0000000010100101
0000000010111011
0000000011010101
0000000010101100
0000000010011101
0000000010000001
0000000010101111
0000000010110111
0000000011101010
0000000010101100
0000000010111111
0000000010111011
0000000010111010
0000000010100111
0000000011001000
0000000010100101
0000000010010010
