0000000011010111
1111111111011100
1111111111000001
0000000001100101
1111111100101010
1111111111110000
0000000000000111
0000000000001101
0000000001100111
0000000011011010
1111111110000111
1111111100010001
1111111111011000
1111111111101100
1111111111110100
0000000011100101
0000000000110000
0000000011011101
0000000000001100
0000000001000110
1111111111011011
0000000001011101
0000000000101000
0000000001100010
1111111100110011
0000000000000001
0000000010101010
0000000001110000
0000000000111010
0000000010000011
1111111111000110
1111111110011100
0000000000000001
0000000001000010
0000000001000100
0000000010001100
0000000000000101
1111111011111100
0000000000111010
0000000000000110
1111111111011001
0000000000001110
0000000011110011
1111111111010001
1111111111011101
1111111100010110
0000000010000110
1111111101111000
0000000000110011
1111111110101001
0000000001110110
0000000000000100
0000000001001110
0000000010110101
0000000000011100
0000000000010111
1111111110001110
1111111110010110
1111111110101001
1111111110100101
0000000001011000
1111111100011110
0000000010001000
0000000001000001
1111111111001101
1111111101110110
0000000000000001
0000000001010011
0000000001101110
0000000010011110
0000000000100000
1111111111001011
0000000010101001
0000000001100010
0000000000001101
0000000001011110
0000000000011011
1111111111011101
1111111110001111
1111111111011000
1111111111111001
0000000000100001
1111111101111000
0000000000000000
1111111100011000
0000000001010111
1111111111111001
1111111110000111
0000000010011110
0000000001000011
1111111110110001
1111111111100100
0000000001100101
0000000001010110
0000000010000010
0000000001011101
0000000000001000
1111111011101101
0000000010011001
0000000001000000
0000000010000010
1111111111001100
1111111101000011
0000000000011000
0000000001000100
1111111111000010
1111111111101001
0000000000001100
1111111110011101
1111111101111001
0000000001101101
0000000001000111
1111111101010011
0000000001101011
0000000000011001
1111111110001001
1111111111001101
0000000010000100
1111111111100110
0000000011011100
0000000001001111
0000000001110101
0000000110110010
1111111111010100
0000000001001001
0000000001001001
0000000010111001
0000000001010011
