0000000011000101
0000000010100000
0000000010111110
0000000010110001
0000000011001111
0000000010110110
0000000011111000
0000000010111001
0000000011010000
0000000010111111
0000000010111100
0000000010001100
0000000011010001
0000000011010111
0000000010111001
0000000010111010
0000000011010001
0000000011000110
0000000010110101
0000000010101000
0000000010100000
0000000011000110
0000000010001101
0000000011000011
0000000011111111
0000000010100100
0000000010111100
0000000010101101
0000000011101011
0000000011011000
0000000011101101
0000000010101111
0000000010100001
0000000010101000
0000000011001001
0000000010101100
0000000010101000
0000000010110100
0000000010110110
0000000010111001
0000000011000101
0000000010110001
0000000010011101
0000000011001100
0000000010111000
0000000010101011
0000000010110101
0000000010100101
0000000011110011
0000000010110110
0000000010101111
0000000011101010
0000000010101110
0000000011011011
0000000010001110
0000000011000111
0000000011101010
0000000010100010
0000000010101001
0000000010110001
0000000011110010
0000000011010110
0000000010010011
0000000010100111
