0000000010001000
1111111111000011
0000000011001010
0000000000010101
0000000011000111
0000000001011101
1111111100001000
0000000001101111
1111111110000001
1111111110101100
0000000100110011
1111111111010100
0000000010011100
0000000001011001
0000000010111000
0000000011100100
0000000001000001
0000000000101011
0000000100010111
0000000001101111
1111111110010111
0000000001000011
0000000001101110
1111111111100100
0000000000010101
0000000000000011
0000000000100100
1111111110000000
0000000001000101
1111111110110110
0000000010000111
1111111110111110
1111111111010110
0000000000010111
0000000010110100
0000000000110011
0000000010001111
1111111110010000
0000000001101010
0000000010011001
1111111101010001
1111111111000011
0000000100011100
0000000010110001
0000000101110101
0000000010001011
0000000001110011
1111111011111010
1111111100001101
1111111110010111
0000000001101100
1111111110111111
0000000001000011
0000000000100001
0000000011100001
1111111111000100
0000000010010111
1111111110010111
1111111100111100
1111111111001100
0000000000011101
1111111110011111
0000000001110000
0000000011111110
1111111111101111
0000000000100100
1111111100110001
1111111100110100
0000000000011101
1111111100001010
1111111111011000
1111111111111000
0000000000101000
0000000010001001
0000000000001111
1111111100111100
0000000001011011
1111111111010101
0000000100011101
1111111111100111
1111111101000000
1111111111101000
0000000001110101
0000000011000100
0000000000111000
0000000010100010
1111111110110111
1111111110101100
0000000001000111
1111111101010100
0000000100010111
0000000000110011
0000000000001011
1111111110111100
1111111011111111
0000000000011010
0000000000010011
0000000011010000
0000000010111100
1111111111101011
0000000001000010
0000000000000000
0000000000101000
1111111110011011
0000000010001110
1111111100011101
1111111101110111
0000000010010000
0000000010010000
1111111110001000
0000000101100010
0000000010010101
1111111110110100
1111111101000000
1111111110000011
1111111110010001
1111111111101001
1111111110101100
1111111111010010
1111111111100001
0000000010000011
0000000000111101
1111111101001011
1111111111011110
0000000010110100
1111111110110001
0000000000011111
1111111011000110
