0000000110011111
0000000110101111
0000000101110111
0000000110000100
0000000101011000
0000000110100001
0000000100100101
0000000110111000
0000000101101100
0000000100101010
0000000101100101
0000000101100011
0000000110101110
0000000111110010
0000000101110110
0000000101011010
0000000111001110
0000000101011001
0000000110011101
0000000110001101
0000000101110101
0000001001011111
0000000111001100
0000000110100100
0000001001011101
0000000101000101
0000000111010111
0000000110000011
0000000100111011
0000000110001000
0000000101000001
0000000110000001
0000000100110011
0000000111001000
0000000100101110
0000000110011001
0000000110010011
0000000101011101
0000001001101010
0000001101011100
0000000110110010
0000000110111011
0000000101101100
0000000101011100
0000000110111100
0000000111001110
0000001011000000
0000000101100110
0000000101000011
0000000101011001
0000000101101011
0000001000000111
0000000110111001
0000000101111000
0000000101100010
0000000100010011
0000000101100110
0000000101000100
0000000101111011
0000000111110001
0000000101111010
0000000111110011
0000000110001001
0000000101011100
0000000101101111
0000000100010101
0000000101000000
0000000110111110
0000000101111100
0000000100100011
0000000100100010
0000000100101000
0000000110000110
0000000101011011
0000000101011111
0000000101011001
0000000101100010
0000000101011000
0000000101110101
0000000100110110
0000000100000100
0000000101110100
0000000111010101
0000000110100000
0000000111100001
0000000110010000
0000000101011001
0000000101100110
0000001101101011
0000000101111011
0000000101111010
0000000110011111
0000000110001111
0000000101100100
0000000101001011
0000000111011101
0000000110010011
0000000101110111
0000000101010101
0000000101001000
0000000111101000
0000000101101000
0000000101111000
0000000101010111
0000000110011000
0000000110101000
0000000011110011
0000000110011010
0000000111010000
0000001001111011
0000000110101111
0000000110000010
0000001000100010
0000000101001101
0000000100110010
0000000100100001
0000001101000101
0000000101100100
0000000101100100
0000000110100011
0000000101110000
0000000100001010
0000000101001000
0000000111001111
0000000110001110
0000000110011110
0000001000000010
0000000101001101
