0000000001100100
1111111110110010
0000000001000101
1111111001010011
0000000110111001
0000000001100001
1111111101100110
0000000010010110
0000000100000111
1111110101111000
1111111011101110
0000000011011100
1111111111100101
1111110101110100
1111111110101000
0000000101111011
0000000100011100
1111111111110010
0000000010111110
0000000000101101
0000000000011001
0000000001010010
0000000000000011
1111111110011010
0000000010101010
1111110111111001
0000000100001001
0000000101100011
0000000010101110
0000000100011101
0000000001100110
0000000000100000
0000000000010011
0000000000111101
0000000100100000
1111111110001010
0000000011110000
0000000001110110
1111110110011101
0000000000111100
0000000100101100
1111111000110100
0000000011000000
0000000000101011
1111111011100111
0000000010100100
0000000010110100
0000000101111111
0000000000000011
0000000010010000
1111111001000011
0000000011010100
0000000000010100
0000000100010000
1111111100001100
1111111101010111
1111111101001011
1111111101101101
1111111111000011
0000000001000011
0000000000000101
1111111111101100
0000000000110001
0000000011000110
0000000000001010
1111111001000101
0000001000000010
0000000001100001
1111111101111110
0000000010111111
0000000000010110
0000000011100011
0000000000111010
0000000100100110
0000000001001011
1111111101010100
1111111010000001
0000000010001001
0000000111000010
1111111010000110
0000000001001001
0000000101001011
0000000000010110
0000000011100110
1111111110000001
1111111110010110
0000000010001111
1111111100011010
0000000001111111
0000000000110001
1111111111000100
1111111001000100
0000000011010100
0000000000000101
0000000001101101
0000000101110001
0000000010001111
0000000001110011
1111110111101111
0000000011101001
0000000101010010
0000000010111110
1111111111010000
1111111101110101
1111111010011011
1111111011111001
1111110000010011
0000001111010001
0000000000111111
1111111101110110
0000001010000001
0000000001101100
1111111101110000
0000000100111000
0000000001001001
0000000110001111
0000000000110100
0000000010000011
1111111101000000
0000000100011010
1111111101100110
0000000001000110
1111111101111111
1111111110110110
0000000000011100
0000000001110101
0000000101111100
0000000101111100
