0000000001001101
0000000000100001
0000000000011101
0000000001010001
1111111110101101
0000000000101000
0000000001001100
1111111110101000
1111111111010110
0000000001110110
0000000010010110
0000000000011000
0000000000101011
1111111110010100
0000000001111011
0000000001111011
1111111010000100
0000000000010101
1111111101001011
0000000001001110
0000000001011100
0000000000011011
0000000011001111
0000000101101110
1111111111100111
0000000000001010
1111111110110101
1111111101111001
1111111111000101
1111111110011100
0000000001110111
0000000001011110
1111111110101110
1111111111111000
0000000100101011
0000000011100010
0000000011110110
0000000000111001
0000000000100001
0000000000001010
1111111111111100
0000000001111011
0000000010110010
0000000001011010
0000000100101001
0000000001001000
0000000100110010
0000000001000011
1111111110011101
1111111101101001
0000000011110111
0000000001010000
1111111111101100
1111111110010001
0000000000111100
0000000010000010
0000000001001111
0000000011101101
1111111101001111
0000000000010010
1111111111011110
0000000001000101
1111111011100010
0000000011111011
