0000001100100101
0000001001011111
0000001011000101
0000001011010111
0000001111010000
0000001011011011
0000001111011111
0000001100111101
0000001100010111
0000001110000011
0000001100101000
0000001101001111
0000001100100101
0000001011110100
0000001101000101
0000001110111000
0000001100001111
0000001100000000
0000001011000110
0000001101101111
0000001110010110
0000001001100111
0000001101001010
0000001001101110
0000001100011110
0000001011111110
0000001101101000
0000001010001010
0000001101100010
0000001100100011
0000010000101111
0000001100001110
0000001011010100
0000001100001011
0000001110001101
0000001011001100
0000001010110010
0000001101011000
0000001011100001
0000001101101011
0000001101101010
0000001010010110
0000001000111001
0000001100100110
0000001011111001
0000001001110111
0000001000111111
0000001110001010
0000001010000001
0000010000101011
0000010000001010
0000001100000100
0000001101000011
0000001011110111
0000001110100010
0000001001111110
0000001100000011
0000001110011011
0000001110101111
0000001101101110
0000001100001000
0000001110011000
0000001100001000
0000001101100100
0000001011001000
0000001100111101
0000001010011011
0000001100001101
0000001101001010
0000001011101100
0000001100001100
0000001011111001
0000001110001110
0000001011001011
0000001100000011
0000001011100111
0000001011011110
0000001100110100
0000001011000001
0000001100000100
0000001010000100
0000001100000000
0000001100001001
0000001011010111
0000001001110100
0000001100100101
0000001011010111
0000001010110001
0000001100100110
0000001101110110
0000001010000011
0000001011000111
0000001100000010
0000001101000001
0000001110010111
0000001010100101
0000001100111101
0000001010101000
0000001010111111
0000001101000101
0000001100010101
0000001011001000
0000001100011111
0000001011110101
0000001101101001
0000001110011011
0000001101001111
0000001100110111
0000001001010101
0000001110010010
0000001111110100
0000001001111111
0000010010101000
0000001001100011
0000001011010110
0000001100100111
0000001101100010
0000001100101111
0000010000011110
0000001010011000
0000001011110110
0000001011101001
0000001100111101
0000001100111001
0000001111001111
0000001101011000
0000001011010011
0000001100100010
0000010000011001
0000001100100101
0000001100100010
0000001101011110
0000001001010101
0000001001101101
0000001110101111
0000001101100001
0000000111100110
0000001101010100
0000001010010101
0000001110001101
0000001110001111
0000001011110100
0000001010010101
0000001100101001
0000001101010111
0000001110010101
0000001011011001
0000001100101101
0000001110001010
0000001001011000
0000001101111111
0000001010010000
0000001110011110
0000001011011001
0000001001111011
0000001101011010
0000001100000010
0000001100011100
0000001110001101
0000001000000010
0000001100101110
0000001100000100
0000001101000100
0000001011101001
0000001101011111
0000001011101000
0000001011100111
0000001101101100
0000001011110000
0000001100100101
0000001011010011
0000001001110111
0000001110001110
0000001100110000
0000001101100101
0000001011100001
0000001111010000
0000001011001101
0000001110001010
0000001000111101
0000001101100011
0000001101001000
0000001101111011
0000001110100011
0000001110000001
0000001011001100
0000001001101011
0000001010011010
0000001101001111
0000001100100010
0000001010011001
0000001100100011
0000001011111001
0000010001011110
0000001101001110
0000001101010011
0000001110111001
0000010001111111
0000001011101011
0000001111010100
0000001011100110
0000001101111111
0000001010010010
0000001010110000
0000001011110100
0000001011001010
0000010000001000
0000001010110100
0000001001001011
0000001011011001
0000001100001100
0000001100010011
0000001011110011
0000001101000011
0000001001110000
0000001100100111
0000001011000010
0000001011000000
0000001101111111
0000001101100001
0000010001000011
0000001001001011
0000001010011100
0000010010000101
0000001000110010
0000001010111100
0000001000011011
0000001110010000
0000001101101101
0000001100010010
0000001011101000
0000001100001100
0000001101110000
0000001100000110
0000001100110111
0000001010111000
0000001100001011
0000001010100101
0000001101000000
0000001010011110
0000010000000100
0000001100000001
0000001011011101
0000001101001010
0000001101111111
0000001011101001
0000001100101000
0000001100100011
0000001010110010
0000001100100100
0000001100100110
0000001111010001
0000001101101000
0000001010001100
0000001111111111
0000010000110110
